17E204EFD484E10FE253BD00144F0B2FE55E454006E88FCFCE19558FD9EB8F0
03924A2FFAF4963FEA0542201766454FF0BB41201D512F600E2BCB80043990D
E848A72015125F2FED96FC80412409000E9E7B402515034017B541800F3D9F9
E0DB0680246E89CFF987E9703893318017632EE004971E200009012FF3733E8
DFF46F801926E70FFF1214F0196C806007705AEFE3A9CD0FEF3DD00FD21D2B0
04142E40068A01A00B95F8D01BC8B50FF0812FAFE8B12CEFF963295FE6E5230
1E76BCA00944035017783AA04A468E0FE6707B40078C83200D1DD4C01DECD86
1634346015E2B480175571405224F48FDCE30AC0168552C01718C3004B2EE18
0613327012EDDE200C60AF703AD994CFE081DCC01AD56B001D71B16044DE578
FCAA7EAFF9A219E0045CC1600196706FE98558C00BD43DA00EFE4D000CE5AB4
0EC6667FEE5643EFFCCAAD9FF2E7886005239B6FEDAC6B6015367B6FDEED300
18B268CFF1F3603FFE45B0D001AC95A00B25B5CFDA5082802554AE8FD757270
1D28362FED837180135223A01E45C6600505685FEB5B034032F87DCFEC51090
114B11EFF0A6956022C0218013D615AFFC0957FFF6F331503050FA80150E2DC
F75F4D7003F739800F1DFBDFF0C7B01FF76D2ABFFE4F15601DE9984037C0AB4
E5FD0C6007FD165FFCE1D1AFD98F89CFFD95978FFB249BB0072D41E0232F034
E6AAF10006DBC8E00F9D5D900CC957401B12AF800120871025F1B1400DC8298
F1895DEFF3A8E7A027DB7A005195BA0036628B4009DED870429E23800400AE0
EE22A58FF71D70802FC4E3405BD6D78031614B800CBA23F03D33DCC0050AB62
D3CB1C00124DB06016DB87800A24A5800DEC09B004987ED00DDCCB0FEF53580
D9835D00268BCE4FF5D2257FF0DE2D2FF870ECBFF2D2B84FE2857A2FE84784A
FFC3C5202ECFF1CFF2A83FF025849D40015AC82FFFAA6B5FF0F46B5FF7B7F11
2330248026F5F10007A081A04CF0E7000F489AA01532516018565F8FFC11287
2800A8C00A6C68902ACF5B80474399800BE401101AD91180208258CFF91B327
18AE38EFEEABE4C03B0C4080339FA4800613985013FDACA00C02C90FF490E8E
03E7D15FE99AB000316ABD40333F604005F7DE20154FF3AFF4AF559FF1AD96C
025E49FFE900996015825C4044EFE98000E779401B8183AFFBF6D75FEFE5E7E
0D07159FE6F5176FF22754102B83A80FF3DA1DE01520470FF1F7891FEA37E82
075FBFDFF83EB14FF348B04015057A0FF2719BC0090E5EB0019DCE9FFCD5F6C
036C7E1FF688A2E004886890319E9C0FF67B5980128C23C01FE3E7C0156C7CE
F4D013B00FF92E8016B001805CFACD80102D11600F1BC220387AD1002729058
F2C522600BC259F0059D179049DFE0800E3CB4DFF571CD601B3835800C68DC0
FD95613FFE44D9FFF36041001BDE466002848BFFE8B134C0011BCB1FF898C74
144C1F6FFA3E263FEC3FB060296BD7C0036A502FF35C1890018F226000E3A19
12CAE78006AE879006D87A904866B800115D044003455BB008592F1023691DC
007178400F39EDC0141A1C803E5B1940046D2F200C4D87E00A6E7AB02B9D0A4
E94C096FF5DF4F801C7C0AAFF2C14D200260D34011AC750004BDAF902843A94
F0EBF77FFAF7E3100E0304EFC9054B80004E97400F14AAD016BE0B200EB5FDB
F65130001AE41F6FF53F791FE5A5F86004325DC006A5D0003338B4CFF92C2DE
F933ABE0292D450FEFFCD7A0339F138008F33E400CB221D042DA338000F5848
FC08F7E0243017CFFD67C4206C567B80053B8300317C180052F8CA00122BB9A
FAE002D00725B6AFF729FB305A50358000EC766047DE1A8054A0F400274C3BC
FA3E6DAFEEB5A0CFDFFE3EC0068F4EDFFD64D200355F5A402D0A08C0225A17C
0476B0CFE5A5398FD23F74CFEB4256AFF8C4E81028C28FC02253AFC012A8E1C
1656F6AFF10A9ECFEED390400D148C3FFCED27302079F1803D23AF0005E3AF7
1F79024FF64AE63027519E803069D78FF3B0F3800FA0B2904A6905000C43936
18CBD88FF96C8220308BBAC03715568FE070A6A000C405403F7A83400CF3DB3
0769A3DFFDE824500D8464EFFBCC778FC613CBCFEE901620175C9C0FFD8FA6C
074CB83000AE422FF12E182FF31B3DEFD051CBC000542760112FADE007F2293
139306400E4124FFEB23AEC02AF8F100051A13A031BF34C032DD5D401A7B1FA
1A4D2D601051F10FF25EFB404C73A180359F24C04E5A858048398B0017C26B0
09B50D300B375A200E4DEAC03DEC72802FCC138053F4290045AD8600095876A
F06F7D0002102B001958914015B698C00CE0F920408106000BD23B00050058B
DE27BF40021A7D400CD962700094FE4FEF272DA03C47C2CFE0667FA00BFE6C1
DE4D434018361B4FFCE5340022E7EF0FF6EDB940314595CFEA239DA008B1CF5
F334C5501C9FCF6FF596D6602C8A3CC005C5C420148CAE8FEE737380020A8B9
09FDE2301616B0E00C01723033668AC0041366FFFB03EDAFF9C6DA4007715D0
103EEDC015290BE028B567804E3C0C8000BC552FFFF614102174DB8027AA334
0F1E466006C64E102A78538055C4068FFBAE429FFEA824002DC277C032B6820
0AE7AD0FF2F51370052E95903B8EEBCFFD8EFB5FF9C5D08018333CA02987494
0DDA337FE54F206FDD41688013AD5D4009A9FD6FF280A10FF7F17070149DE84
0FA10EFFE503B10FE029D40024F8C9802A55FBCFF105D80FE76BC6E00A21F09
0595A1AFF857F70FFC055030360057803523454FFB1A1A3FEDE2C44010093B8
E2BF66EFF3891D5016F224000BEC129036499C80057A80CFF207D91026471BC
E20953E02173CECFE5A0C7801DAF6F4FFF3A05E00A04785FFCDE0D0007A6E43
F910F390084B0C2FE68AA8602BFD0A400B9A4220023F6EBFF873B220213B1B4
07D59B501960B5AFE6617C40208361400E6462101392C0EFFD52D6203E04534
1A520B200BD59FEFFDDB0BC0081A197FFB6972400D7A27A00355A1E02CEABF4
21317C4FF11215C010673F800A3DA53FE1AD922FF5F47A2FFD43D24018D5E0E
2F0DF04FDAAB3E801C661B201B95B10FE339A76FEF9DD1AFF761B580150D2F8
476C468FF26165602152738014FB7E8FF90D01C004B1E96FF58403401DE1ECC
4F4CC0802271A9C017309C8FFE9DC4D00B146CC0133E486FF9242E70206E4E8
403CAB0043E0E580076A995FE6C0F4C00E51077017161FA0097E87D0235E0A0
302549403EB040CFF9F6D90FD730618004E761A00A929F00127298E02266D40
1AFC9DC0241ED78FEE3402AFD88D684004D781B008BBF93FFF42AA401C95E78
165C398010463F0FE71546CFF3747DF00403A130199B62CFF02DA14006A36EA
1F84C74FF6F366EFE2072BC008F72DA00653CDE02900AF4FF1F4A90FFB42AFB
0D8F18BFD972178FDF1BE800064FA8D00311B1C02BDC4F8FF0035BEFF380A85
F1B3BD6FC7B71C4FEE10796FE62DE580009B7FB01ACD134FF276E2FFEE200D4
ED2461CFDB971600107906AFCAC5058FF562C46005DC290FF42D201FF58D7B8
053665E004EF6D802736CACFCDCFE14FF37237700420BE900709FE90099E79B
0CF342503A67408022C14A4FF2EE7230050B7CE0125EA040162E1E0017A7F7C
051D1D9043EA0500037755501DF480A015EC0BE0193AE7E00E39E770086BF23
E63736A02763650FE8BA760022D96BC001F2C12006BD195FEEC7A2AFF0F1549
E321AA8012CC900FF42370300CAF2ABFE625640FFE4CBB4FDB07054FE098668
F4A339C007E4E030051D9B70002D18DFE88ED7C001BAFD9FD565BC8FE97672C
0FFC064FF12182C00D1234EFFA0E877FE8DA70A00632660FDED17AC00F9DFAB
220C6FCFEDB34D8FFE130BDFF7C2B14FEAAE5DC006DC96EFEB132BA01AC6B7A
1B05762FF6F9AB4FED79A18FF517AE5FE82140801482E3A0003B7A300DAACF0
21BAD0C00AB88EFFEFF2634FED4AAF6FEB3BAC00214E2E400FF9AB40003113B
2257ED802C0C8F800464652FE68CEF6001FE368029B72240116384400C611CB
FF72EBE0220D28801278E2AFF1327B8016E53F800EB57B50005638C00B147D7
F3117CDFF658AF201029758FFE89FCD023FEA30FFA45AECFEE460A600E524CF
F5ACDB0FF689553FFECF61600CF9FB00280D3B4002A91BEFF89F6050233F8F0
057785700677DD0FFF45DAA002FDCA002221AD800EDA3D100B4F14D02F0DA7C
05726890087223A0013DD14FF826A20000F9D2D005F07C801B3D6DA01D9806C
0779D89FF569157009BC33FFFC7EBA7FEA7BF02FED337F40155E6980049C898
10121A4FF968E6F011472E4004705EEFEE7692EFEE99D60006CBB3DFFF30081
2A8B7E8013CB90400D1AD5C00E890780033C0A0FFB7E89EFEEB0D88FFD5169B
27E1C0C029D5674004DCCC2007DCD6F0088E0A800596D0AFF4FA44DFFEEC590
2A573840133B23EFE8B45C8013204BC011EE4E8FEE78A46FFBB3B1300342C2A
2582B4CFF3B0CF4FEFF870E010C0CDE01FD5ECEFD238C300036A58D00C36ED1
317C504FF278786012F2142FFFF793F02E425FCFDABD1A00004DDA3005C0599
47B4328008DACF902742FB80073F8E603D9789400232805003189DEFF181325
66F3138012D5814029B174C01C730FA0338210C01FF21C6015DA5C4FE93EEA0
5271C0801E3992000F460B60281D2240060F21002A381FC02522008FFB95EDC
13D6AC801332504FFA3C9B201B51854FDF56700017FAC1000AB3E8F00FCCC85
EB196BA00E9F8C6005A9B0E00A22027FEC2570CFFE6CFB5FEEA89C602132730
F4E8E5EFFFF763A02708BB4011F5F0A00A21392FE61BDB2FE4A45FE027EB594
14D5C4EFFD63E180364BBCC018E9FD601A045B2FE721A7AFF4D1973015BC642
1A46580007DA13A025FA0B4019E5CC00103B740FF377B9300AECE41FF511003
EF96FFE005098CEFFE4EE6B0019A44CFEEE5ED4FF43E4BC01C37AC2FE0E5EC6
E10E8D201BDCCBEFF17D4F8FE4F01FCFEDF9942FFA2938C02458CD0FE43DF32
F63E661036468C4FF74CB99FDF3FC0400E55164FFFF43B80279A310FFDF4C15
117CF8C022756C4FFCCB1BDFF8FE78D02587454FEF86B9201DDC01000CF2521
27D611CFFBA128900045D8701FF818E01EFCBE0FDFD2EAC012CDA28010034C6
24C5B68FE66252200161984025103CC00686501FDFE84E000DBB9E9FFE41900
21438F8FE8AC0F200EC93B90131314CFF77F18EFECC10DA010520EEFEDA0336
21ED94CFFE7DAB70278C9CCFFCC7ECD015C629EFF9C7FA100A9F1D5FE9F239E
0B0811EFFC66FB102AE60D8FEC28F180307F608FF8A8356FF164B94FEE5C5F8
FCA530AFE494CA001A8096EFF22AD3504052778FFB64FF1FE580C8EFF61CB54
0A113B7FE35E3F0003E5565FFBCBE6A04495818002C3F84FFF61C38006BBD6A
0BCCC2DFF2BA3E2FF291F73FFC7D94E03279E2C0064BF140290188800A57AAC
05DD2AC0006B4ECFF46DECBFF083A4B015251440070307003FCE3C4FFF8B1E6
F6BB41D0042102CFF9A777DFED69042002F5E1CFF9C014A02D9BEA4FF46CDA7
F14E28001458510FFD95002FF866E070057BDCDFFB03E16009E43B7FE6B228E
05877D201B10B2C000BFF81001F823500F3267000AFB0FFFEF53C7AFEDCF1C6
1AEF08A010BF020FE9F93D8028880BC029EED6CFF80FA5EFE880B58FFAEAF70
