FF512B50012FA40FE75D410FF800EF7FDB1B6C800B831A502F120F0FCA816EC
E758A2AFC087D8CFB706CB800061FBCFFFAD2D900A3623801A01E2201D9E21E
F605B37020BA1C8025A3BA800BB3A40FFDB17870285C3D8FF4CFC64FEE5AECC
B77781801E9438AFFD984430258616CFE092420FCD7AA6CFE132B1EFDA6AE88
FD4E5A300DB59BFFFB0BC79FD1F8DFC023ACFB0FFA7ABC9FF99FC9601E63BB0
DF0B948FC5C023401CB4126FBBF4AE8FE63FA0AFF831A0AFEBAAF600091ADBB
DDCB66CFA0F3660FEF1F6A2FF7EBD0AFF8BD9BB026E4E48FB86C4A0FC3E1150
4EA5E00FE4AB17A00F1457FFD93ED08FD4A1AECFE343356FEBA1E8401796A82
24215F401F57558008C415E035551D402164F2400BA79A6001795670263E9E0
C88BE08FD4DDB5801B33220FE60EF0CFCDB594CF96541B8FBC5A590022E4C74
07E6EC7FEBA1A92FBEAA060FCA4DDA404FE7BA8007E0B7B00C18948FC84BAF4
136C3D8FD0BAAE8002C4BDFFF51B5BAFB94FC9003E5B17CFDF57FA0FD602398
0A4B2E601C227A2FFE7DD9FFDA61040FC9971C4FD4E3320FF60B982F94F9458
CBC7D1402C7634CFE58FA0CFE774348FDC68E04FF91DAD70324C8140285D0D0
ED4E60E0022EC1CFD5C1E34FCB997DC00EC32D7FA746378FF66965C015B2C8E
EEFFA76FE5C702802F99A48019BDDB400D9BCEBFEF002B802315600FF1BC0A0
198D750FFEDD1F100FE2A94009EB310FD220030FEA53A46FFEF558DFE65C892
F65EE9FFD08E3CCFCBC4918FE88CAD0FF4C681DFFE5CA2702704EC803BEAC34
05456C401946EB0023CC0B400173DC7FE6B8DE40279578400E0FEA9000F89D7
E22589E0146796A009F5BF9FEEC810200395DE1FDDEA904FF3DEF04FCF4F73C
E75E98402790DC801718108FD28E3300298E290FEB51362FF911BFB0182E4E6
D72CB68FC339AA002C8D988FB2FD5500145665AFF6DEEEEFDACFE98FF2D87AB
D3FE688FE852C6CFE4502D0FF94F0F9FEB4E6140308533CFD2BA828FCDBBFA0
4503538FEC4175AFE88B928FD593648FDFB9408FED427FA002ACAEB014BD5D0
243CCFC018537DA0072522F034149C0023DB980011D66A2FF9315B4021C118C
D200454FB82CEC003011D1CFFECD81EFBB84F58FCE5779CF9E41438040D5A40
2C19508FCB8253CFB71F800FC4BB94403DFD8940264DBD4FFF5C611FC272944
DC7EAA0FC8238F8FEF76296007A70A9FD7BAD6003097860FC8238F8FB632820
06B0EAE02745970FD681D4CFC707D38FB0F1AA0FB977030FDAF99C4FC6035A8
B9D5450029F7BA8FEA593A6FEFF152EFF622F7301D9C7640398235C00B3A194
F6571D602296288FCD8ECCC0082BFD6FDCF0EB8FB1B3B88FEADD57AFEA27678
E4B0642FE691AF601BED2EC0235802C01553256FE5801F802C1D17CFEAD2212
22CE4F4FF33B9810295E308028EF140FC941BE4FE2AFC8EFCC2C174FEEC434C
FA70504FE804E92FF7E36B9FDCB08D8FF334745FDEBE8F001D4260204E1F878
0BCED23019ACD8602A1C5B4FF24C014FDD1EC6C025889CC024ED370004B2465
32EBFE8FFFD165CFEDD13ECFAFE7E8000566DDAFE17422AFE1E708EFDC1A44C
DC42ECC038F423002AAEB60FD8F29980289DCBCFE5BB89CFE4CA58C006BF048
D97C6E0FA8ECF200160AB42FCAE80D802C45114FF4A7A27FE4653AE001A82BC
DABC2AC02720BACFE97239A002E7739FE42699A017DC252FF68AB46FF6FFDDE
24A7F48FF55175AFCF492ECFDF5DB20FFDD29DDFF5895E30129EE82FFF92E56
24BFA5000F53BFD001EF3D002BBDC600250B88401921BEAFFF2057601DCFFCC
CEF0160FD0BD4A801E918CA00448C99FAE6F3900109D9F4FA0CB3E80259BC68
2558E48FD3FC9F4FAAB6110FE3B05EE00908DD9036A8C5CFEF5DB6CFCE84828
C44B880FC2E4E98FF5BDF9EFFB94ED60051909100365612FC69F200FB90C9F8
F3A3DDF00F6383CFB88BF28FD5832B0FAF44C30FC6FA078FD2F60B80045DB72
C7CCACC005F0B83FF4E873C005EB3E801712C3402FC342802A3121CFFE5432B
EDFE3A002A657CCFC83635C00C1D12AFCD95940FA6DAAF0FFCE1E2BFA9BA9F0
E85BC3EFF24271A0050BF800224FD4800EAAFCDFDF6CF480305518CFF11FE84
1DD224CFEBFFFA001F2042203D20258FCBF2228FE4EEE9EFBA7D3D0FE0F690E
EE39076FF0C317B01942E78FE47E3A0FFA1487CFC918B90FFA60420047C7938
09231C40159B1C603112D24FEFE0536FE75A5F0021FE47C030560D00017C293
625D328FF9B57E4FC954C18FACDF888FE2943C6FD1957E8FC788C24FF758338
D96290C0435DBC8026D3DECFECED102020E04ECFEFD3916FD0B4A38FE8F62C6
D85ED74F92D63C8FE7C057AFCFDCFCC01495E84FE862B06010BB67E000F095D
F11DF8F026D0D4CFF30C7C3FFAE45F7FD35A460FED5CC360049679400CA98A9
06E40C7FF5EBEBEFD6AB788FF44585B0216A0DCFEDB794601480120FE3677C8
28E875000BA25F0002CA0F50173837C0282B11002197DEC00B2A179023BFA1C
C98D1BC000648AFFFEAF4C2FFDAAE6CFC7E21F402187110FC3845E0000F6074
F24E00100091025FB4943900053D448FDAC58EC025F8038FEA4CAE8FD791B98
CFA4E40FBF84B58019C3DF4FDABCEC80181A8C4FDAD2170FC779618FDBAB7C0
D007F6CFECD102AFAC7C450FE39144AFB2C27500041945EFD707A880222BBD8
E1A5390FDA003A4FFE7483701B96DC801807E52030A927400F72906FF0BAAB7
EAFF7E400792A1EFD516FD4FDE27268FE8C9130F914D3E800DE571AF8920808
F8A5426004D9A1EFF38E21301F7FF34FFFD8EE4FE1A392C02CD41FC00A706F4
16F03B8FEDFD67A002BB88902DF5C08FE085804FEC4BEF8FD3E3D38FD8DB324
D911824FE2555F201D342A0FFA54CC600BB3009FC8BB078FD6B5EE402AEFD90
0202F97001951A5037217A4004DBA53FFA30D8B016EB3D80323810C00380461
4BAA8400092EF29FBBF2BE8FD59FED0FBA186A8FBC1C920FC1D96F0FF9C1F28
DD432F40476D1C800D3D054FFFF54170122C056FFE26198FD673D64FD3D327C
C9B94D8FA2BF478FBC41E08FA92FDA8FE8AA0A8FE5BD2860372AD08FDED3E54
1413D14FFEE54B9FF0EBD45FE99A006FC4113C4FDA16F20FF70D250FF82BEBD
F69A436FF1E648BFEA89A1600BDF00F038FEB18FDD5AD380034EF40FCB45FDC
2C78E2C0106ED7A0068EB94FFF9570102B320F80284EEA8015CCE6802A98968
D680AB00133E73EFFB089E0FF909E81FEF444ACFFA309BEFED289580031A3D0
BC20E6001EA24D6FE29C55400C5C4CEFD9C7FE8FFE04E9AFF7C90DCFDE29BA4
E6C1B26FD303D4003C7682CFBA4BBE8FFB87346FD800108FBF148B000600149
AB6CF18FD388BF0FAB02FB8FD581060FBE9EEC8040D57E8FCE38D4C0178D676
FD5BEF2FCB1E6DCFFD2FE0D017F0108FF729DE202A60B00FEB35EC2FDEE75AC
FD3F093FCAD25E4FECEA6D4FBB6D9A0FFB0AF1CFAF03068007573BDFA250C48
0A4B0D2014CF04CFEC94380028FFE04FEE86F60FE93FD840257DB84026208DC
17CBD58FF04AE21FF3730E200598FA6001D37B5FF0FC3A300B8F907FF2A8E4A
C63ECDCFD335EA0FFD1D59100449EA8022F02D4FD6F31B0FCEC3610015525A4
F8949C5FE6915300369FACC01F18E9600AC6FF30103555C02CC6FF8FFE8E48A
FD4D9ED016D3FD0FD2D2014FEF8703AFC3B3F44FA702EE0FC9A0994FE20C65C
DE81F6004640ED8FF25853FFFF2DE870001413D00B35AECFED53E4CFD08A930
CFC964CFCF4C6F4FAE7A898F8CB6B90FDCBF360FE402A1803EADC18FC725568
3F86380FDD5BFB8FD6A721CFEA643A0FC9B01ACFEBE93E4FE914742FD02C368
F7999F2FF9571B0FF9B29060249346403084F54FD576E60FEEA0F86FC4070C0
2E6DE900170EC8000D3D70CFF13D160029DCD9002B505980150E13802905E8C
EBC0B46FF9AEB9301412656FEC87E7A00178271FCFC0BE4FF35D74C019DF998
B860B700116561A0205FF00FF99D5F0FF2F30A3FE73601000756867FE8D40CC
F0B54CB0034B20503BC1958FC18D18CFC8BA328FDD924D0FC13F78402102814
A1FEBB8FD931854FAFFBFD0FDB17978FD8FBB1405A6E6F0FCF4BCB8FFD91594
127646CFDB1B154FFFAF47900540A43FDA321C401B43476FCA7E4C0FD2AF630
051B6B1F9C3A558000E87D0FC2969ACFE2921A8FF7F1389FEB17702FF3911E3
0E1C07301B4DAAEFEA7307A0375E490FE25AC66FED6D33C011FD22C03184828
258CB34FEA02DFCFF4125B1FDEE397800AE58D9FE8E25AC036C649801EFBF9E
C53FD94FCE41E4CFCF29A0CFF2D152A02DCE3BCFF6B2178FDE98EFC00A24833
EDFE3CAFDD22798030F5D1402FC113000DBD6D5011E0CC802839D34FEFDAA88
B9EE6780034A43FFFA50D0BFF03171FFF8340E9FA0E4AE8FC891F04FC188A24
E38AE24037907E0FE7D08BEFF068410FEB1F70A013F1D9E00322620FD7FC5D8
DC05A44FF24A5EDFB627718FA4893C0FEC212BEFD77D168029FF4C4FDA0AE9C
5CFB420FDD8A748FA99ABF0FFB128F8FEA8280A00807068FEF47C3CFB76C7B8
048010701751D4EFF9267C5034578CC0123D054FD28D440FE2C3146FC9D365C
24B6C4801CFA5AA015EA6BEFF32C8E1029E4AD4024F25DC00F7121601F83682
0516C0EFCF558DC027A4164FE1783D8FE93ED06FBF6F2B0FC84C00801008DA0
D9BC7E0FEF9C3F40388D2D8FD5F9F94000EBA6BFFB27C4C0014CF2AFFD52E80
E04391403306418017330B2FE68D450FBCC6088FD56C0E8FE3CBC2E01F0FCEE
B6B36F8FF4B99A3FCB13BF8FFC8DCECFFD17E8303F9438CFE11F3ACFFCAEA33
1A94816FF049AFB00CBBCE9FF624F99FD9B4078FF8A9BE0FC19BF10FE6B6774
E31A8A0F9AC2D98FFD8B9BEFD2D8C8CFB370078033DFCF4FC3409A4025190DC
10C5A0C013B97F0FE8ECAB603C64FD0FE6EEF46FF4D5F50FFFEC04E02F475F8
2F672C8FED600BEFFA18078FD220B8CFFEAAE80FE04BE2403214B1C03A7CCC0
D6F1648FD626BF0FBAFF5F0FCC440DC01C6C5120064021BFF94614200B6C74E
F44FF62FE5B47BC02B6A47C02DCD63400D7A24D00E1727902723324FEA1E0DC
B2D0380FD0D1E0C016BE6BEFEE2B9E202BABD5CFB579298FC520E24FC36FD20
F4A585A01C83550FF347BA2FE96EA22FD79D74001D0F784007C3743FE9C8874
C439934FF1B4266FBD42EF8FE736980FE1C37BCFCF52D7000E9E505FEF786A0
4B013A8FE5611C0F8AC5A08FFF9B7FAFFC58F8C008F1F1300754050FB148050
1BD316E03CAC2D8FECF5FA202DF6C9CFEDC176CFD2FCA64FDF5721CFD9AA77C
0A97B8E0216B46801E6F64EFFFD2F63031099340207B44C00B7C0C50108653A
2552C10FBED1E9000C33D22FF46393CFD536778FC92CAD8F9A1FF10FEA0BC18
FDDC3E9FE4A5AE601E05528FC15476CFE98F7BC02DD339CFF7E84A800C2658C
C24E98803B17AD0FE76840C0050CA6DFD21EAD8FBFE0490018EB8C6003DE0A2
C60C66C006640F3FF726B0E0106754EFF9C67C8003A2E5CFE580EDA0042CF0B
11D3438FEA1C46E01B8767CFEE5412AFE455660FDB6571CFD56AC9C0102E590
B0C7160FC37D424FF25D99BFDA05448FA54FEC80387B784FAA1E670018422D2
189DF42FFFED359FE9217D40398ACC4FFEA872700280CE9FF6509FE024660BC
